{
  "special_tokens": [
    "<pad>",
    "<bos>",
    "<eos>",
    "<unk>",
    "<user>",
    "<assistant>",
    "<search>",
    "</search>",
    "<memory>",
    "</memory>",
    "<agent>",
    "</agent>"
  ],
  "merges": [
    [
      "e",
      "s"
    ],
    [
      "<",
      "o"
    ],
    [
      "<o",
      ">"
    ],
    [
      "<",
      "s"
    ],
    [
      "s",
      "a"
    ],
    [
      "u",
      "e"
    ],
    [
      "a",
      "s"
    ],
    [
      ".",
      "es"
    ],
    [
      "t",
      "n"
    ],
    [
      "b",
      "s"
    ],
    [
      "bs",
      "<s"
    ],
    [
      "bs<s",
      "r"
    ],
    [
      "sa",
      "t"
    ],
    [
      "as",
      "sat"
    ],
    [
      "i",
      "tn"
    ],
    [
      "<o>",
      "<s"
    ],
    [
      "<o><s",
      "itn"
    ],
    [
      "<o><sitn",
      ">"
    ],
    [
      "<o>",
      "ue"
    ],
    [
      "<o>ue",
      ">"
    ],
    [
      "<o>",
      "<o>ue>"
    ],
    [
      "?",
      "es"
    ],
    [
      "t",
      "e"
    ],
    [
      "h",
      "t"
    ],
    [
      "i",
      "e"
    ],
    [
      "o",
      "e"
    ],
    [
      "a",
      "e"
    ],
    [
      "t",
      "r"
    ],
    [
      "a",
      "i"
    ],
    [
      "a",
      "d"
    ],
    [
      "bs<sr",
      "W"
    ],
    [
      "e",
      "t"
    ],
    [
      "e",
      "r"
    ],
    [
      "h",
      "r"
    ],
    [
      "bs<srW",
      "a"
    ],
    [
      "t",
      "l"
    ],
    [
      "o",
      "y"
    ],
    [
      "n",
      "s"
    ],
    [
      "n",
      "e"
    ],
    [
      "y",
      "u"
    ],
    [
      "e",
      "p"
    ],
    [
      "r",
      "s"
    ],
    [
      "i",
      "g"
    ],
    [
      "t",
      "p"
    ],
    [
      "t",
      "s"
    ],
    [
      "<o><o>ue>",
      "ht"
    ],
    [
      "r",
      "a"
    ],
    [
      "p",
      "tl"
    ],
    [
      "ai",
      "a"
    ],
    [
      "c",
      "ptl"
    ],
    [
      "a",
      "c"
    ],
    [
      "e",
      "d"
    ],
    [
      "h",
      "n"
    ],
    [
      "o",
      "l"
    ],
    [
      "s",
      "te"
    ],
    [
      "w",
      "r"
    ],
    [
      "l",
      "a"
    ],
    [
      "<o><o>ue>ht",
      "i"
    ],
    [
      "u",
      "l"
    ],
    [
      "a",
      "t"
    ],
    [
      ",",
      "ad"
    ],
    [
      "r",
      "m"
    ],
    [
      "i",
      "h"
    ],
    [
      "l",
      "n"
    ],
    [
      "c",
      "m"
    ],
    [
      "l",
      "e"
    ],
    [
      "m",
      "l"
    ],
    [
      "f",
      "r"
    ],
    [
      "F",
      "ac"
    ],
    [
      "m",
      "r"
    ],
    [
      "s",
      "e"
    ],
    [
      "t",
      "o"
    ],
    [
      "r",
      "n"
    ],
    [
      "a",
      "a"
    ],
    [
      "e",
      "l"
    ],
    [
      "o",
      "k"
    ],
    [
      "h",
      "l"
    ],
    [
      "t",
      "m"
    ],
    [
      "cptl",
      "o"
    ],
    [
      "J",
      "p"
    ],
    [
      "m",
      "n"
    ],
    [
      "assat",
      "T"
    ],
    [
      "c",
      "n"
    ],
    [
      "<o><sitn>",
      "h"
    ],
    [
      "s",
      "r"
    ],
    [
      "e",
      "oy"
    ],
    [
      "s",
      "s"
    ],
    [
      "o",
      "p"
    ],
    [
      "k",
      "o"
    ],
    [
      "i",
      "n"
    ],
    [
      "m",
      "mr"
    ],
    [
      "er",
      "h"
    ],
    [
      "i",
      "s"
    ],
    [
      "a",
      "k"
    ],
    [
      "g",
      "t"
    ],
    [
      ".",
      "I"
    ],
    [
      "r",
      "ne"
    ],
    [
      "Jp",
      "n"
    ],
    [
      "d",
      "y"
    ],
    [
      "i",
      "y"
    ],
    [
      "bs<sr",
      "H"
    ],
    [
      "sa",
      "d"
    ],
    [
      "P",
      "rs"
    ],
    [
      "c",
      "er"
    ],
    [
      "o",
      "ts"
    ],
    [
      "o",
      "n"
    ],
    [
      "a",
      "n"
    ],
    [
      "sa",
      "c"
    ],
    [
      "t",
      "d"
    ],
    [
      "r",
      "g"
    ],
    [
      "n",
      "a"
    ],
    [
      "e",
      "ul"
    ],
    [
      "ste",
      "cptlo"
    ],
    [
      "f",
      "Fac"
    ],
    [
      "bs<sr",
      "N"
    ],
    [
      "r",
      "b"
    ],
    [
      "r",
      "t"
    ],
    [
      "a",
      "l"
    ],
    [
      "i",
      ".es"
    ],
    [
      "o",
      "d"
    ],
    [
      "D",
      "c"
    ],
    [
      "s",
      "f"
    ],
    [
      "v",
      "r"
    ],
    [
      "es",
      "n"
    ],
    [
      "e",
      "."
    ],
    [
      "la",
      "n"
    ],
    [
      "y",
      "hn"
    ],
    [
      "assatT",
      "e"
    ],
    [
      "o",
      "t"
    ],
    [
      "s",
      "n"
    ],
    [
      "t",
      "a"
    ],
    [
      "cm",
      "ue"
    ],
    [
      "o",
      "rm"
    ],
    [
      "assat",
      "A"
    ],
    [
      "u",
      "d"
    ],
    [
      "f",
      "e"
    ],
    [
      "a",
      ":"
    ],
    [
      "y",
      "i"
    ],
    [
      "s",
      "d"
    ],
    [
      "es",
      "i"
    ],
    [
      "e",
      "u"
    ],
    [
      "c",
      "e"
    ],
    [
      "o",
      "m"
    ],
    [
      "u",
      "s"
    ],
    [
      "op",
      "tr"
    ],
    [
      "l",
      "o"
    ],
    [
      "w",
      "e"
    ],
    [
      "R",
      "M"
    ],
    [
      ":",
      "P"
    ],
    [
      "bs<srN",
      "ts"
    ],
    [
      "n",
      "wr"
    ],
    [
      ".",
      "S"
    ],
    [
      "et",
      "m"
    ],
    [
      "etm",
      ","
    ],
    [
      "c",
      "o"
    ],
    [
      "j",
      "c"
    ],
    [
      "w",
      "tr"
    ],
    [
      "o",
      ".es"
    ],
    [
      "q",
      "as"
    ],
    [
      "assat",
      "S"
    ],
    [
      "r",
      "c"
    ],
    [
      "s",
      "u"
    ],
    [
      "bs<sr",
      "A"
    ],
    [
      "s",
      "o"
    ],
    [
      "bs<srH",
      "w"
    ],
    [
      "bs<sr",
      "T"
    ],
    [
      "assat",
      "Y"
    ],
    [
      "l",
      "i"
    ],
    [
      "assat",
      "W"
    ],
    [
      "s",
      "Prs"
    ],
    [
      "<o><o>ue>",
      "oe"
    ],
    [
      "<o><o>ue>oe",
      ":P"
    ],
    [
      "<o><o>ue>oe:P",
      "a:"
    ],
    [
      "A",
      "se"
    ],
    [
      "sr",
      "cer"
    ],
    [
      "srcer",
      "yi"
    ],
    [
      "f",
      "ne"
    ],
    [
      "fne",
      "e."
    ],
    [
      "fnee.",
      "U"
    ],
    [
      "fnee.U",
      "e"
    ],
    [
      "-",
      "ra"
    ],
    [
      "-ra",
      "o"
    ],
    [
      "nwr",
      "te"
    ],
    [
      "nwrte",
      "ue"
    ],
    [
      "la",
      "l"
    ],
    [
      "ns",
      "ots"
    ],
    [
      "nsots",
      "esi"
    ],
    [
      "ed",
      "d"
    ],
    [
      "s",
      "ra"
    ],
    [
      "sra",
      "k"
    ],
    [
      "a",
      "tn"
    ],
    [
      "oy",
      ".es"
    ],
    [
      "eu",
      "a"
    ],
    [
      "l",
      "s"
    ],
    [
      "s",
      "m"
    ],
    [
      "h",
      "m"
    ],
    [
      "w",
      "t"
    ],
    [
      "assatTe",
      "cptlo"
    ],
    [
      "T",
      "ko"
    ],
    [
      "i",
      "tr"
    ],
    [
      "f",
      "o"
    ],
    [
      "<o><sitn>",
      "o"
    ],
    [
      "o",
      "r"
    ],
    [
      "c",
      "a"
    ],
    [
      "f",
      "Jpn"
    ],
    [
      "h",
      "ns"
    ],
    [
      "s",
      "ml"
    ],
    [
      "bs<sr",
      "I"
    ],
    [
      "b",
      "u"
    ],
    [
      "i",
      "u"
    ],
    [
      "e",
      "e"
    ],
    [
      "e",
      "g"
    ],
    [
      "n",
      "t"
    ],
    [
      "m",
      "k"
    ],
    [
      "sa",
      "e"
    ],
    [
      "P",
      "to"
    ],
    [
      "b",
      "e"
    ],
    [
      "i",
      "t"
    ],
    [
      "s",
      ":"
    ],
    [
      "ie",
      "i"
    ],
    [
      "ce",
      "n"
    ],
    [
      "es",
      "r"
    ],
    [
      "oe",
      "ok"
    ],
    [
      "t",
      "k"
    ],
    [
      "F",
      "i"
    ],
    [
      "a",
      ".es"
    ],
    [
      "fFac",
      "?es"
    ],
    [
      "s",
      "ep"
    ],
    [
      "u",
      "t"
    ],
    [
      "us",
      "in"
    ],
    [
      "w",
      "l"
    ],
    [
      "m",
      "T"
    ],
    [
      "mT",
      "n"
    ],
    [
      "mTn",
      "S"
    ],
    [
      "mTnS",
      "M"
    ],
    [
      "iy",
      "L"
    ],
    [
      "<o><o>ue>",
      "e"
    ],
    [
      "ht",
      "cn"
    ],
    [
      "w",
      "rs"
    ],
    [
      "Dc",
      "Dc"
    ],
    [
      "DcDc",
      "G"
    ],
    [
      ".",
      "W"
    ],
    [
      "a",
      "tr"
    ],
    [
      "a",
      "h"
    ],
    [
      "r",
      "v"
    ],
    [
      "<o><sitn>",
      "l"
    ],
    [
      "t",
      "ig"
    ],
    [
      "o",
      "s"
    ],
    [
      "r",
      "i"
    ],
    [
      "assat",
      "H"
    ],
    [
      "e",
      "v"
    ],
    [
      "y",
      "<o><sitn>"
    ],
    [
      "p",
      "orm"
    ],
    [
      "ht",
      "i"
    ],
    [
      "ae",
      "o"
    ],
    [
      "oy",
      "e"
    ],
    [
      "2",
      "+"
    ],
    [
      "2+",
      "2"
    ],
    [
      "<o><o>ue>oe:Pa:",
      "mmr"
    ],
    [
      "f",
      "c"
    ],
    [
      "eoy",
      "-rao"
    ],
    [
      "w",
      "ie"
    ],
    [
      "h",
      "c"
    ],
    [
      "u",
      "c"
    ],
    [
      "k",
      "e"
    ],
    [
      "c",
      ".es"
    ],
    [
      "r",
      "jc"
    ],
    [
      "p",
      "oe"
    ],
    [
      "a",
      "ln"
    ],
    [
      "m",
      "d"
    ],
    [
      "qas",
      "4"
    ],
    [
      "sa",
      "l"
    ],
    [
      "s",
      "Tko"
    ],
    [
      "r",
      "d"
    ],
    [
      "tn",
      "gt"
    ],
    [
      "n",
      "o"
    ],
    [
      "rn",
      "ig"
    ],
    [
      "t",
      "y"
    ],
    [
      "f",
      "l"
    ],
    [
      "ie",
      "<o><o>ue>"
    ],
    [
      "n",
      "yu"
    ],
    [
      "ie",
      "m"
    ],
    [
      "d",
      "m"
    ],
    [
      "bs<sr",
      "S"
    ],
    [
      "Jp",
      "ns"
    ],
    [
      "e",
      "a"
    ],
    [
      "p",
      "e"
    ],
    [
      "o",
      "hr"
    ],
    [
      "o",
      "te"
    ],
    [
      "assat",
      "Prs"
    ],
    [
      "!",
      "es"
    ],
    [
      "w",
      "b"
    ],
    [
      "l",
      "k"
    ],
    [
      "d",
      "te"
    ],
    [
      "sat",
      "r"
    ],
    [
      "in",
      "l"
    ],
    [
      "p",
      "ns"
    ],
    [
      "d",
      "nt"
    ],
    [
      "h",
      "i"
    ],
    [
      "p",
      "o"
    ],
    [
      "h",
      "y"
    ],
    [
      "u",
      ".es"
    ],
    [
      "/",
      "erh"
    ],
    [
      "e",
      ".es"
    ],
    [
      "assatY",
      "s"
    ],
    [
      "<o><o>ue>",
      "x"
    ],
    [
      "<o><o>ue>x",
      "li"
    ],
    [
      "<o><o>ue>",
      "o"
    ],
    [
      ",",
      "wtr"
    ],
    [
      "aa",
      ".es"
    ],
    [
      "aeo",
      "?es"
    ],
    [
      "assatW",
      "tr"
    ],
    [
      "assatWtr",
      "i"
    ],
    [
      "y",
      "rg"
    ],
    [
      "rne",
      "<o><sitn>h"
    ],
    [
      "esn",
      "Ase"
    ],
    [
      "o",
      "i"
    ],
    [
      "mn",
      "ts"
    ],
    [
      "t",
      "i"
    ],
    [
      "o",
      "g"
    ],
    [
      ".S",
      "e"
    ],
    [
      "p",
      "at"
    ],
    [
      "f",
      "es"
    ],
    [
      "cptl",
      "i"
    ],
    [
      "an",
      "hc"
    ],
    [
      "anhc",
      "d"
    ],
    [
      "ed",
      "iei"
    ],
    [
      "r",
      "dy"
    ],
    [
      "w",
      "a"
    ],
    [
      "etm,",
      "ls"
    ],
    [
      "el",
      "h"
    ],
    [
      ",ad",
      "ke"
    ],
    [
      "om",
      "co"
    ],
    [
      "ue",
      ".es"
    ],
    [
      "hm",
      "wr"
    ],
    [
      "ad",
      "s"
    ],
    [
      "p",
      "ol"
    ],
    [
      "et",
      "o"
    ],
    [
      "td",
      "aln"
    ],
    [
      "s",
      "Fi"
    ],
    [
      "i",
      "ns"
    ],
    [
      "se",
      ".es"
    ],
    [
      "B",
      "e"
    ],
    [
      "sep",
      "tp"
    ],
    [
      "sr",
      "es"
    ],
    [
      "ol",
      "q"
    ],
    [
      "olq",
      "itr"
    ],
    [
      "K",
      "e"
    ],
    [
      "h",
      "v"
    ],
    [
      "rb",
      "e"
    ],
    [
      "o",
      "tr"
    ],
    [
      "t",
      "h"
    ],
    [
      "u",
      "jc"
    ],
    [
      "o",
      "f"
    ],
    [
      "et",
      "i"
    ],
    [
      "h",
      "mn"
    ],
    [
      "a",
      "g"
    ],
    [
      "c",
      "l"
    ],
    [
      "p",
      "r"
    ],
    [
      "assat",
      "N"
    ],
    [
      ",",
      "I"
    ],
    [
      "iyL",
      ","
    ],
    [
      "<o><o>ue>",
      "iem"
    ],
    [
      "fJpn",
      "i"
    ],
    [
      "<o><sitn>",
      "i"
    ],
    [
      "ae",
      "yu"
    ],
    [
      "ig",
      "t"
    ],
    [
      "f",
      "yu"
    ],
    [
      "tm",
      "s"
    ],
    [
      "3",
      "eul"
    ],
    [
      "f",
      "n"
    ],
    [
      "s",
      "ol"
    ],
    [
      "ue",
      "i"
    ],
    [
      "n",
      "te"
    ],
    [
      "w",
      "n"
    ],
    [
      "assatY",
      "u"
    ],
    [
      "<o><sitn>",
      "A"
    ],
    [
      "e",
      "m"
    ],
    [
      "<o><o>ue>",
      "h"
    ],
    [
      "bu",
      "?es"
    ],
    [
      "o",
      "o"
    ],
    [
      "bs<srHw",
      "d"
    ],
    [
      "hl",
      ".es"
    ],
    [
      "bs<sr",
      "C"
    ],
    [
      "s",
      "l"
    ],
    [
      "n",
      "ad"
    ],
    [
      "bs<srT",
      "a"
    ],
    [
      "ak",
      "yu"
    ],
    [
      "e",
      "c"
    ],
    [
      "ht",
      "sn"
    ],
    [
      "htsn",
      "h"
    ],
    [
      "htsnh",
      "ss"
    ],
    [
      "ul",
      "gt"
    ],
    [
      "ev",
      "s"
    ],
    [
      "n",
      "n"
    ],
    [
      "sm",
      "tig"
    ],
    [
      "<o><sitn>",
      "sac"
    ],
    [
      "<o><sitn>sac",
      ">"
    ],
    [
      "m",
      "ns"
    ],
    [
      "ud",
      "yu"
    ],
    [
      "w",
      "i"
    ],
    [
      "i",
      "?es"
    ],
    [
      "e",
      "tn"
    ],
    [
      "yhn",
      "tp"
    ],
    [
      "o",
      "a"
    ],
    [
      "s",
      "wr"
    ],
    [
      "e",
      "te"
    ],
    [
      "f",
      "te"
    ],
    [
      "ep",
      "r"
    ],
    [
      "l",
      "r"
    ],
    [
      "m",
      "v"
    ],
    [
      "n",
      "ac"
    ],
    [
      "r",
      "w"
    ],
    [
      "ih",
      ",wtr"
    ],
    [
      "cm",
      "satr"
    ],
    [
      "ed",
      "y"
    ],
    [
      "bs<srHw",
      "mn"
    ],
    [
      "ht",
      "yu"
    ],
    [
      "u",
      "k"
    ],
    [
      "uk",
      "u"
    ],
    [
      "uku",
      "ko"
    ],
    [
      "ae",
      "i"
    ],
    [
      "m",
      "as"
    ],
    [
      "h",
      "e"
    ],
    [
      "s",
      "fr"
    ],
    [
      "assat",
      "RM"
    ],
    [
      "yrg",
      "na"
    ],
    [
      "yrgna",
      "o"
    ],
    [
      "yrgnao",
      "sad"
    ],
    [
      "yrgnaosad",
      "oe"
    ],
    [
      "yrgnaosadoe",
      "oye"
    ],
    [
      "tm",
      "<o><o>ue>hti"
    ],
    [
      "assat",
      "2+2"
    ],
    [
      "assat2+2",
      "eul"
    ],
    [
      "es",
      "o"
    ],
    [
      "tp",
      "<o><sitn>"
    ],
    [
      "P",
      "c"
    ],
    [
      "fc",
      "sd"
    ],
    [
      "T",
      "k"
    ],
    [
      "ra",
      ".es"
    ],
    [
      ":",
      "lan"
    ],
    [
      "pat",
      "c"
    ],
    [
      "o",
      "u"
    ],
    [
      "ai",
      "as"
    ],
    [
      "to",
      ":"
    ],
    [
      "s",
      "O"
    ],
    [
      "sO",
      "B"
    ],
    [
      "sOB",
      "T"
    ],
    [
      "sOBT",
      "7"
    ],
    [
      "l",
      "uc"
    ],
    [
      "oe",
      "<o><sitn>h"
    ],
    [
      "ie",
      "<o><sitn>"
    ],
    [
      "rg",
      "l"
    ],
    [
      "rgl",
      "rb"
    ],
    [
      "rglrb",
      "d"
    ],
    [
      "rglrbd",
      "ie"
    ],
    [
      "es",
      "a"
    ],
    [
      "i",
      "ih"
    ],
    [
      "f",
      "ns"
    ],
    [
      "hn",
      "tk"
    ],
    [
      "poe",
      "tdaln"
    ],
    [
      "ep",
      "oe"
    ],
    [
      "s",
      "H"
    ],
    [
      "sH",
      "O"
    ],
    [
      "x",
      "g"
    ],
    [
      "s",
      "2+2"
    ],
    [
      "s2+2",
      "<o><sitn>"
    ],
    [
      "qas4",
      "<o><o>ue>hti"
    ],
    [
      "rne",
      "i"
    ],
    [
      "ai",
      ".es"
    ],
    [
      "as",
      "ots"
    ],
    [
      "u",
      "y"
    ],
    [
      "assat",
      "1"
    ],
    [
      "i",
      "k"
    ],
    [
      "o",
      "ue"
    ],
    [
      "i",
      "ue"
    ],
    [
      "ae",
      "as"
    ],
    [
      "be",
      "k"
    ],
    [
      "h",
      "s"
    ],
    [
      "op",
      "r"
    ],
    [
      "rne",
      "ad"
    ],
    [
      "rnead",
      "Jpn"
    ],
    [
      "rneadJpn",
      "cptl"
    ],
    [
      "assat",
      "Fac"
    ],
    [
      "esn",
      "["
    ],
    [
      "esn[",
      "ol"
    ],
    [
      "mmr",
      "]"
    ],
    [
      "oe",
      "i"
    ],
    [
      "R",
      "I"
    ],
    [
      "RI",
      "-"
    ],
    [
      "RI-",
      "7"
    ],
    [
      "sFi",
      "a"
    ],
    [
      "septp",
      ":"
    ],
    [
      "h",
      "at"
    ],
    [
      "assat",
      "Ke"
    ],
    [
      "rd",
      "c"
    ],
    [
      "te",
      "r"
    ],
    [
      "hr",
      "et"
    ],
    [
      ",",
      "te"
    ],
    [
      "sr",
      "th"
    ],
    [
      "el",
      "su"
    ],
    [
      "elsu",
      "ko"
    ],
    [
      "oeok",
      "<o><sitn>"
    ],
    [
      "el",
      "m"
    ],
    [
      "l",
      "ae"
    ],
    [
      "o",
      "v"
    ],
    [
      "es",
      "al"
    ],
    [
      "t",
      "at"
    ],
    [
      "tat",
      "m"
    ],
    [
      "bs<srA",
      "e"
    ],
    [
      "bs<srAe",
      "yu"
    ],
    [
      "bs<srAeyu",
      "hmn"
    ],
    [
      "bs<srAeyuhmn",
      "<o><sitn>o"
    ],
    [
      "ag",
      "ae"
    ],
    [
      "agae",
      "md"
    ],
    [
      "agaemd",
      "l"
    ],
    [
      "agaemdl",
      "rnig"
    ],
    [
      "agaemdlrnig",
      "o"
    ],
    [
      "or",
      "cmue"
    ],
    [
      "ot",
      "ae"
    ],
    [
      "orm",
      "c"
    ],
    [
      "ormc",
      "ie<o><o>ue>"
    ],
    [
      "ormcie<o><o>ue>",
      "r"
    ],
    [
      ".I",
      "a"
    ],
    [
      "iyL,",
      "atn"
    ],
    [
      "etm,",
      "dm"
    ],
    [
      "etm,dm",
      "sres"
    ],
    [
      "etm,dmsres",
      "l"
    ],
    [
      "etm,dmsresl",
      "t"
    ],
    [
      "etm,dmsreslt",
      ",adke"
    ],
    [
      "cen",
      "tm"
    ],
    [
      "olqitr",
      "o.es"
    ],
    [
      "et",
      "p"
    ],
    [
      "le",
      ".es"
    ],
    [
      "o",
      "b"
    ],
    [
      "a",
      "hn"
    ],
    [
      "gt",
      "ad"
    ],
    [
      "w",
      "y"
    ],
    [
      "<o><sitn>",
      "ai"
    ],
    [
      "<o><o>ue>e",
      ","
    ],
    [
      "<o><o>ue>e,",
      "Jpns"
    ],
    [
      "<o><o>ue>e,Jpns",
      "to"
    ],
    [
      "bs<srA",
      "d"
    ],
    [
      "bs<srH",
      "lo"
    ],
    [
      "bs<srHlo",
      "<o><sitn>i"
    ],
    [
      "H",
      "w"
    ],
    [
      "<o><o>ue>",
      "'"
    ],
    [
      "n",
      "wrs"
    ],
    [
      "nwrs",
      "ml"
    ],
    [
      "usin",
      ","
    ],
    [
      "ih",
      "DcDcG"
    ],
    [
      "ak",
      "m"
    ],
    [
      ".W",
      "a"
    ],
    [
      "s",
      "A"
    ],
    [
      "ss",
      "f"
    ],
    [
      "ssf",
      "wr"
    ],
    [
      "ht",
      "lan"
    ],
    [
      "atr",
      "sf"
    ],
    [
      "atrsf",
      "o"
    ],
    [
      "t",
      "cn"
    ],
    [
      "ie",
      "a"
    ],
    [
      ".",
      "A"
    ],
    [
      "ht",
      "so"
    ],
    [
      "es",
      "b"
    ],
    [
      "a",
      "ohr"
    ],
    [
      "assat",
      "5"
    ],
    [
      "assat5",
      "tms"
    ],
    [
      "assat5tms",
      "3eul"
    ],
    [
      "o",
      "'"
    ],
    [
      "o'",
      "ed"
    ],
    [
      "o'ed",
      "ig"
    ],
    [
      "tr",
      "<o><sitn>"
    ],
    [
      ",",
      "tk"
    ],
    [
      "iy",
      "s"
    ],
    [
      "optr",
      "g"
    ],
    [
      "ote",
      "d"
    ],
    [
      "oted",
      "co"
    ],
    [
      "otedco",
      "?"
    ],
    [
      "otedco?",
      "B"
    ],
    [
      "otedco?B",
      "c"
    ],
    [
      "otedco?Bc",
      "uei"
    ],
    [
      "oy",
      "<o><sitn>"
    ],
    [
      "t",
      "f"
    ],
    [
      "er",
      "e"
    ],
    [
      "ee",
      "y"
    ],
    [
      "eey",
      "n"
    ],
    [
      "fyu",
      "wn"
    ],
    [
      "bs<sr",
      "Y"
    ],
    [
      "bs<srY",
      "s"
    ],
    [
      "bs<srT",
      "ak"
    ],
    [
      "bs<srTak",
      "!es"
    ],
    [
      "ln",
      "u"
    ],
    [
      "lnu",
      "g"
    ],
    [
      "o",
      "cm"
    ],
    [
      "hr",
      "-"
    ],
    [
      "hr-",
      "em"
    ],
    [
      "C",
      "U"
    ],
    [
      "CU",
      "<o><sitn>h"
    ],
    [
      "b",
      "an"
    ],
    [
      "s",
      "i"
    ],
    [
      "c",
      "in"
    ],
    [
      "s",
      "t"
    ],
    [
      "st",
      "es"
    ],
    [
      "i",
      "sa"
    ],
    [
      "l",
      "gt"
    ],
    [
      "w",
      "s"
    ],
    [
      "n",
      "tm"
    ],
    [
      "e",
      "?es"
    ],
    [
      "r",
      "p"
    ],
    [
      "h",
      "ud"
    ],
    [
      "n",
      "m"
    ],
    [
      "r",
      "h"
    ],
    [
      "bs<srC",
      "nyu"
    ],
    [
      "f",
      "inl"
    ],
    [
      "ep",
      "as"
    ],
    [
      "<o><o>ue>ht",
      "sol"
    ],
    [
      "m",
      "tig"
    ],
    [
      "bs<srTa",
      "sa"
    ],
    [
      "bs<srTasa",
      "et"
    ],
    [
      "bs<srTasaet",
      "akyu"
    ],
    [
      "bs<srTasaetakyu",
      "t"
    ],
    [
      "rn",
      "h"
    ],
    [
      "rnh",
      "<o><sitn>"
    ],
    [
      "n",
      "F"
    ],
    [
      "nF",
      "ec"
    ],
    [
      "assatH",
      "lo"
    ],
    [
      "assatHlo",
      "i"
    ],
    [
      "s",
      "hl.es"
    ],
    [
      "<o><sitn>l",
      "ns"
    ],
    [
      "a",
      "r"
    ],
    [
      "op",
      "at"
    ],
    [
      "q",
      "eto"
    ],
    [
      "u",
      "nn"
    ],
    [
      "assat",
      "I"
    ],
    [
      "c",
      ".I"
    ],
    [
      "og",
      "tr"
    ],
    [
      "f",
      "I"
    ],
    [
      "ol",
      "o"
    ],
    [
      "bs<srS",
      "ac"
    ],
    [
      "is",
      "<o><sitn>sac>"
    ],
    [
      "is",
      "/erh"
    ],
    [
      "a",
      "es"
    ],
    [
      "2",
      "d"
    ],
    [
      "2d",
      "v"
    ],
    [
      "2dv",
      "d"
    ],
    [
      "2dvd",
      "d"
    ],
    [
      "2dvdd",
      "b"
    ],
    [
      "s",
      "9"
    ],
    [
      "mns",
      "2"
    ],
    [
      "<o><o>ue>",
      "y"
    ],
    [
      "assat",
      "Be"
    ],
    [
      "hr",
      "<o><sitn>"
    ],
    [
      "G",
      "o"
    ],
    [
      "ht",
      "w"
    ],
    [
      "htw",
      "udyu"
    ],
    [
      "htwudyu",
      "lk"
    ],
    [
      "o",
      "tl"
    ],
    [
      "bs<srT",
      "l"
    ],
    [
      "b",
      "g"
    ],
    [
      "et",
      "s"
    ],
    [
      "o",
      "ml"
    ],
    [
      "ep",
      "m"
    ],
    [
      "o",
      "ie"
    ],
    [
      "e",
      "al"
    ],
    [
      "ig",
      "<o><sitn>"
    ],
    [
      "e",
      "k"
    ],
    [
      "i",
      "c"
    ],
    [
      "assat",
      "<"
    ],
    [
      "assat<",
      "erh"
    ],
    [
      "ae",
      ","
    ],
    [
      "vr",
      "ul"
    ],
    [
      "vrul",
      "ev"
    ],
    [
      "vrulev",
      "rn"
    ],
    [
      "vrulevrn",
      "et"
    ],
    [
      "n",
      "x"
    ],
    [
      "rg",
      "a"
    ],
    [
      "ai",
      "g"
    ],
    [
      "e",
      "n"
    ],
    [
      "i",
      "d"
    ],
    [
      "<o><sitn>",
      "0"
    ],
    [
      "4",
      "eul"
    ],
    [
      "lan",
      "d"
    ],
    [
      "a",
      ",ad"
    ],
    [
      "rv",
      "t"
    ],
    [
      "p",
      "l"
    ],
    [
      "tl",
      "ie"
    ],
    [
      "ae",
      "pe"
    ],
    [
      "aepe",
      "i"
    ],
    [
      "aepei",
      "to"
    ],
    [
      "assatA",
      "cmue"
    ],
    [
      "po",
      "esr"
    ],
    [
      "aa",
      "?es"
    ],
    [
      "nac",
      "er"
    ],
    [
      "nacer",
      "dy"
    ],
    [
      "s",
      "ce"
    ],
    [
      "Fi",
      "ns"
    ],
    [
      "Fins",
      "i"
    ],
    [
      "oe",
      "n"
    ],
    [
      "ah",
      "ohr"
    ],
    [
      "rc",
      "ie"
    ],
    [
      "cmsatr",
      "M"
    ],
    [
      "cmsatrM",
      "na"
    ],
    [
      "<o><sitn>",
      "hr"
    ],
    [
      "ae",
      "ul"
    ],
    [
      "fr",
      "t"
    ],
    [
      ".I",
      "cn"
    ],
    [
      "n",
      "om"
    ],
    [
      "nom",
      "to"
    ],
    [
      "ot",
      "sae"
    ],
    [
      "p",
      "c"
    ],
    [
      ",",
      "p"
    ],
    [
      "rn",
      "m"
    ],
    [
      "n",
      "<o><sitn>"
    ],
    [
      "+",
      "1"
    ],
    [
      "e",
      "mn"
    ],
    [
      "fte",
      "U"
    ],
    [
      "fteU",
      "ie"
    ],
    [
      "t",
      "ts"
    ],
    [
      "el",
      "v"
    ],
    [
      "y",
      "tm"
    ],
    [
      "rs",
      "l"
    ],
    [
      "rsl",
      "rs"
    ],
    [
      "rslrs",
      "se.es"
    ],
    [
      "a",
      "y"
    ],
    [
      "na",
      "we"
    ],
    [
      "sa",
      "?es"
    ],
    [
      "sml",
      ".es"
    ],
    [
      "h",
      "w"
    ],
    [
      "ae",
      "fo"
    ],
    [
      "e",
      "ie"
    ],
    [
      "p",
      "swr"
    ],
    [
      "on",
      ".es"
    ],
    [
      "assat",
      "R"
    ],
    [
      "ig",
      "ue"
    ],
    [
      "i",
      ",ad"
    ],
    [
      "rm",
      "m"
    ],
    [
      "rmm",
      "e"
    ],
    [
      "i",
      "fr"
    ],
    [
      "ai",
      "n"
    ],
    [
      "n",
      "l"
    ],
    [
      "te",
      "c"
    ],
    [
      "sf",
      "oe"
    ],
    [
      "sa",
      "er"
    ],
    [
      "sa",
      "sae"
    ],
    [
      "sasae",
      "wt"
    ],
    [
      "su",
      "r"
    ],
    [
      "ra",
      "f"
    ],
    [
      "raf",
      "s"
    ],
    [
      "t",
      "?es"
    ],
    [
      "sd",
      "fr"
    ],
    [
      "d",
      "t"
    ],
    [
      "mv",
      "n"
    ],
    [
      "2",
      "p"
    ],
    [
      "2p",
      "u"
    ],
    [
      "I",
      "i"
    ],
    [
      "etn",
      "e"
    ],
    [
      "cptl",
      "c"
    ],
    [
      "fFac",
      ".es"
    ],
    [
      "assatT",
      "ko"
    ],
    [
      "assatRM",
      "i"
    ],
    [
      "rn",
      "o"
    ],
    [
      "c",
      "es"
    ],
    [
      "ces",
      "mmr"
    ],
    [
      "epr",
      "r"
    ],
    [
      "tr",
      "g"
    ],
    [
      ".",
      "B"
    ],
    [
      "ep",
      "e"
    ],
    [
      "<o>ue>",
      "hti"
    ],
    [
      "sPrs",
      "<o><o>ue>oe:Pa:mmr"
    ],
    [
      "s",
      ":P"
    ],
    [
      "s:P",
      "a"
    ],
    [
      "tp",
      "b"
    ],
    [
      "tp<o><sitn>",
      ")"
    ],
    [
      "tp<o><sitn>)",
      "Pc"
    ],
    [
      "oi",
      "."
    ],
    [
      "oi.",
      "2"
    ],
    [
      "0",
      "fcsd"
    ],
    [
      "0fcsd",
      "mnts"
    ],
    [
      ")",
      "W"
    ],
    [
      ")W",
      "ie"
    ],
    [
      ")Wie",
      "3"
    ],
    [
      ")Wie3",
      "n"
    ],
    [
      ")Wie3n",
      "ts"
    ],
    [
      ")",
      "Tk"
    ],
    [
      "ra",
      "."
    ],
    [
      "on",
      "ti"
    ],
    [
      "og",
      "ts"
    ],
    [
      "ogts",
      ":lan"
    ],
    [
      "ogts:lan",
      "Pto"
    ],
    [
      "ai",
      "s"
    ],
    [
      "ais",
      "<o><sitn>"
    ],
    [
      "ais<o><sitn>",
      "tp"
    ],
    [
      "ais<o><sitn>tp",
      "1"
    ],
    [
      "n",
      "tl"
    ],
    [
      "tp",
      "2"
    ],
    [
      "ai",
      "be"
    ],
    [
      "rn",
      ".Se"
    ],
    [
      ":",
      "patc"
    ],
    [
      "fes",
      ".Se"
    ],
    [
      ":",
      "wie"
    ],
    [
      ":wie",
      "atn"
    ],
    [
      "c",
      "it"
    ],
    [
      "cit",
      "<o><o>ue>oe:Pa:"
    ],
    [
      "cit<o><o>ue>oe:Pa:",
      "cm"
    ],
    [
      "cit<o><o>ue>oe:Pa:cm",
      "ae"
    ],
    [
      "cit<o><o>ue>oe:Pa:cmae",
      "-rao"
    ],
    [
      "ie",
      ":"
    ],
    [
      "ie:",
      "Fac"
    ],
    [
      "aias",
      "Ase"
    ],
    [
      "s:",
      "C"
    ],
    [
      "s:C",
      "m"
    ],
    [
      "s:Cm",
      "ae"
    ],
    [
      "s:Cmae",
      "Fac"
    ],
    [
      "aias",
      "<o><sitn>"
    ],
    [
      "aias<o><sitn>",
      "rne"
    ],
    [
      "aias<o><sitn>rne",
      "cptli"
    ],
    [
      "ai",
      "."
    ],
    [
      "ai.",
      "Jpn"
    ],
    [
      "ai.Jpn",
      "cptli"
    ],
    [
      "to:",
      "eoy"
    ],
    [
      "rdy",
      "Ase"
    ],
    [
      "s:",
      "U"
    ],
    [
      "s:U",
      "ig"
    ],
    [
      "s:Uig",
      "mmr"
    ],
    [
      "s:Uigmmr",
      ","
    ],
    [
      "s:Uigmmr,",
      "wa"
    ],
    [
      "ste",
      "luc"
    ],
    [
      "sOBT7",
      ".es"
    ],
    [
      "erh",
      "-rao"
    ],
    [
      "to:",
      "erh"
    ],
    [
      "cen",
      ","
    ],
    [
      "cen,",
      "co"
    ],
    [
      "om",
      "Ase"
    ],
    [
      "s:",
      "R"
    ],
    [
      "s:R",
      "sac"
    ],
    [
      "i",
      "sad"
    ],
    [
      "isad",
      "sm"
    ],
    [
      "isadsm",
      "a"
    ],
    [
      "isadsma",
      "ie<o><sitn>"
    ],
    [
      "isadsmaie<o><sitn>",
      "ep"
    ],
    [
      "isadsmaie<o><sitn>ep",
      "a"
    ],
    [
      "isadsmaie<o><sitn>epa",
      "rglrbdie"
    ],
    [
      "eu",
      "esr"
    ],
    [
      "euesr",
      "esa"
    ],
    [
      "ih",
      ",adke"
    ],
    [
      "ae",
      "a"
    ],
    [
      "aea",
      "ml"
    ],
    [
      "aeaml",
      "i"
    ],
    [
      "aeamli",
      "se"
    ],
    [
      "iih",
      "hmwr"
    ],
    [
      "hn",
      "rs"
    ],
    [
      "hnrs",
      ".es"
    ],
    [
      "assat",
      "F"
    ],
    [
      "assatF",
      "rt"
    ],
    [
      "assatFrt",
      "fns"
    ],
    [
      "oeok",
      "pol"
    ],
    [
      "oeokpol",
      "m"
    ],
    [
      "et",
      "wt"
    ],
    [
      "te",
      "c.es"
    ],
    [
      "bs<sr",
      "["
    ],
    [
      "bs<sr[",
      "eoy"
    ],
    [
      "rdy",
      "Q"
    ],
    [
      "rdyQ",
      "eto"
    ],
    [
      "rdyQeto",
      ":"
    ],
    [
      "rdyQeto:",
      "W"
    ],
    [
      "rdyQeto:W",
      "a"
    ],
    [
      "ste",
      "poetdaln"
    ],
    [
      "rm",
      "mmr"
    ],
    [
      "rmmmr",
      "?es"
    ],
    [
      "assatT",
      "epoe"
    ],
    [
      "assatTepoe",
      "tdaln"
    ],
    [
      "sFi",
      "a.es"
    ],
    [
      "s",
      "wtr"
    ],
    [
      "swtr",
      "md"
    ],
    [
      "f",
      "<o><sitn>"
    ],
    [
      "f<o><sitn>",
      "ae"
    ],
    [
      "sHO",
      "-"
    ],
    [
      "sHO-",
      "to"
    ],
    [
      "sHO-to",
      "h"
    ],
    [
      "sHO-toh",
      "d"
    ],
    [
      "sHO-tohd",
      "oe"
    ],
    [
      "xg",
      "na"
    ],
    [
      "xgna",
      "o.es"
    ],
    [
      "ln",
      "asots"
    ],
    [
      "lnasots",
      "uy"
    ],
    [
      "lnasotsuy",
      "ss"
    ],
    [
      "lnasotsuyss",
      "ins"
    ],
    [
      "lnasotsuyssins",
      "e"
    ],
    [
      "y",
      "se.es"
    ],
    [
      "ik",
      "oe"
    ],
    [
      "ikoe",
      "tp"
    ],
    [
      "ikoetp",
      "c"
    ],
    [
      ")",
      "S"
    ],
    [
      ")S",
      "uy"
    ],
    [
      ")Suy",
      "fr"
    ],
    [
      ")Suyfr",
      "2"
    ],
    [
      "iue",
      "."
    ],
    [
      "iue.",
      "3"
    ],
    [
      "oe",
      "."
    ],
    [
      "oe.",
      "4"
    ],
    [
      "aeas",
      "ot"
    ],
    [
      "aeasot",
      "bek"
    ],
    [
      "aeasotbek",
      "<o><o>ue>oe:Pa:mmr"
    ],
    [
      "s:",
      "Be"
    ],
    [
      "s:Be",
      "k"
    ],
    [
      "s:Bek",
      "d"
    ],
    [
      "s:Bekd",
      "w"
    ],
    [
      "hs",
      "ln"
    ],
    [
      "yhn",
      "bs"
    ],
    [
      "yhnbs",
      "c.es"
    ],
    [
      "assatS",
      "e"
    ],
    [
      ":",
      "i"
    ],
    [
      ":i",
      "sal"
    ],
    [
      ":isal",
      "Pto"
    ],
    [
      ":isalPto",
      ".Se"
    ],
    [
      ":lan",
      "v"
    ],
    [
      ":lanv",
      "ra"
    ],
    [
      ":lanvra",
      "l"
    ],
    [
      ":lanvral",
      "sad"
    ],
    [
      ":lanvralsad",
      "p"
    ],
    [
      ":lanvralsadp",
      "it"
    ],
    [
      "tp",
      "3"
    ],
    [
      "rc",
      "iei"
    ],
    [
      "rciei",
      "/"
    ],
    [
      "rciei/",
      "le"
    ],
    [
      "tp",
      "4"
    ],
    [
      "iy",
      "sr"
    ],
    [
      "iysr",
      "p"
    ],
    [
      "iysrp",
      ".es"
    ],
    [
      "esn",
      "F"
    ],
    [
      "esnF",
      "c"
    ],
    [
      "esnFc",
      "ss"
    ],
    [
      "esnFcss",
      "d"
    ]
  ],
  "vocab": {
    "<pad>": 0,
    "<bos>": 1,
    "<eos>": 2,
    "<unk>": 3,
    "<user>": 4,
    "<assistant>": 5,
    "<search>": 6,
    "</search>": 7,
    "<memory>": 8,
    "</memory>": 9,
    "<agent>": 10,
    "</agent>": 11,
    "\n": 12,
    " ": 13,
    "!": 14,
    "\"": 15,
    "'": 16,
    ")": 17,
    "+": 18,
    ",": 19,
    "-": 20,
    ".": 21,
    "/": 22,
    "0": 23,
    "1": 24,
    "2": 25,
    "3": 26,
    "4": 27,
    "5": 28,
    "6": 29,
    "7": 30,
    "8": 31,
    "9": 32,
    ":": 33,
    "<": 34,
    ">": 35,
    "?": 36,
    "A": 37,
    "B": 38,
    "C": 39,
    "D": 40,
    "E": 41,
    "F": 42,
    "G": 43,
    "H": 44,
    "I": 45,
    "J": 46,
    "K": 47,
    "L": 48,
    "M": 49,
    "N": 50,
    "O": 51,
    "P": 52,
    "Q": 53,
    "R": 54,
    "S": 55,
    "T": 56,
    "U": 57,
    "W": 58,
    "Y": 59,
    "[": 60,
    "]": 61,
    "a": 62,
    "b": 63,
    "c": 64,
    "d": 65,
    "e": 66,
    "f": 67,
    "g": 68,
    "h": 69,
    "i": 70,
    "j": 71,
    "k": 72,
    "l": 73,
    "m": 74,
    "n": 75,
    "o": 76,
    "p": 77,
    "q": 78,
    "r": 79,
    "s": 80,
    "t": 81,
    "u": 82,
    "v": 83,
    "w": 84,
    "x": 85,
    "y": 86,
    "z": 87,
    "—": 88,
    "→": 89,
    "﻿": 90,
    "es": 91,
    "<o": 92,
    "<o>": 93,
    "<s": 94,
    "sa": 95,
    "ue": 96,
    "as": 97,
    ".es": 98,
    "tn": 99,
    "bs": 100,
    "bs<s": 101,
    "bs<sr": 102,
    "sat": 103,
    "assat": 104,
    "itn": 105,
    "<o><s": 106,
    "<o><sitn": 107,
    "<o><sitn>": 108,
    "<o>ue": 109,
    "<o>ue>": 110,
    "<o><o>ue>": 111,
    "?es": 112,
    "te": 113,
    "ht": 114,
    "ie": 115,
    "oe": 116,
    "ae": 117,
    "tr": 118,
    "ai": 119,
    "ad": 120,
    "bs<srW": 121,
    "et": 122,
    "er": 123,
    "hr": 124,
    "bs<srWa": 125,
    "tl": 126,
    "oy": 127,
    "ns": 128,
    "ne": 129,
    "yu": 130,
    "ep": 131,
    "rs": 132,
    "ig": 133,
    "tp": 134,
    "ts": 135,
    "<o><o>ue>ht": 136,
    "ra": 137,
    "ptl": 138,
    "aia": 139,
    "cptl": 140,
    "ac": 141,
    "ed": 142,
    "hn": 143,
    "ol": 144,
    "ste": 145,
    "wr": 146,
    "la": 147,
    "<o><o>ue>hti": 148,
    "ul": 149,
    "at": 150,
    ",ad": 151,
    "rm": 152,
    "ih": 153,
    "ln": 154,
    "cm": 155,
    "le": 156,
    "ml": 157,
    "fr": 158,
    "Fac": 159,
    "mr": 160,
    "se": 161,
    "to": 162,
    "rn": 163,
    "aa": 164,
    "el": 165,
    "ok": 166,
    "hl": 167,
    "tm": 168,
    "cptlo": 169,
    "Jp": 170,
    "mn": 171,
    "assatT": 172,
    "cn": 173,
    "<o><sitn>h": 174,
    "sr": 175,
    "eoy": 176,
    "ss": 177,
    "op": 178,
    "ko": 179,
    "in": 180,
    "mmr": 181,
    "erh": 182,
    "is": 183,
    "ak": 184,
    "gt": 185,
    ".I": 186,
    "rne": 187,
    "Jpn": 188,
    "dy": 189,
    "iy": 190,
    "bs<srH": 191,
    "sad": 192,
    "Prs": 193,
    "cer": 194,
    "ots": 195,
    "on": 196,
    "an": 197,
    "sac": 198,
    "td": 199,
    "rg": 200,
    "na": 201,
    "eul": 202,
    "stecptlo": 203,
    "fFac": 204,
    "bs<srN": 205,
    "rb": 206,
    "rt": 207,
    "al": 208,
    "i.es": 209,
    "od": 210,
    "Dc": 211,
    "sf": 212,
    "vr": 213,
    "esn": 214,
    "e.": 215,
    "lan": 216,
    "yhn": 217,
    "assatTe": 218,
    "ot": 219,
    "sn": 220,
    "ta": 221,
    "cmue": 222,
    "orm": 223,
    "assatA": 224,
    "ud": 225,
    "fe": 226,
    "a:": 227,
    "yi": 228,
    "sd": 229,
    "esi": 230,
    "eu": 231,
    "ce": 232,
    "om": 233,
    "us": 234,
    "optr": 235,
    "lo": 236,
    "we": 237,
    "RM": 238,
    ":P": 239,
    "bs<srNts": 240,
    "nwr": 241,
    ".S": 242,
    "etm": 243,
    "etm,": 244,
    "co": 245,
    "jc": 246,
    "wtr": 247,
    "o.es": 248,
    "qas": 249,
    "assatS": 250,
    "rc": 251,
    "su": 252,
    "bs<srA": 253,
    "so": 254,
    "bs<srHw": 255,
    "bs<srT": 256,
    "assatY": 257,
    "li": 258,
    "assatW": 259,
    "sPrs": 260,
    "<o><o>ue>oe": 261,
    "<o><o>ue>oe:P": 262,
    "<o><o>ue>oe:Pa:": 263,
    "Ase": 264,
    "srcer": 265,
    "srceryi": 266,
    "fne": 267,
    "fnee.": 268,
    "fnee.U": 269,
    "fnee.Ue": 270,
    "-ra": 271,
    "-rao": 272,
    "nwrte": 273,
    "nwrteue": 274,
    "lal": 275,
    "nsots": 276,
    "nsotsesi": 277,
    "edd": 278,
    "sra": 279,
    "srak": 280,
    "atn": 281,
    "oy.es": 282,
    "eua": 283,
    "ls": 284,
    "sm": 285,
    "hm": 286,
    "wt": 287,
    "assatTecptlo": 288,
    "Tko": 289,
    "itr": 290,
    "fo": 291,
    "<o><sitn>o": 292,
    "or": 293,
    "ca": 294,
    "fJpn": 295,
    "hns": 296,
    "sml": 297,
    "bs<srI": 298,
    "bu": 299,
    "iu": 300,
    "ee": 301,
    "eg": 302,
    "nt": 303,
    "mk": 304,
    "sae": 305,
    "Pto": 306,
    "be": 307,
    "it": 308,
    "s:": 309,
    "iei": 310,
    "cen": 311,
    "esr": 312,
    "oeok": 313,
    "tk": 314,
    "Fi": 315,
    "a.es": 316,
    "fFac?es": 317,
    "sep": 318,
    "ut": 319,
    "usin": 320,
    "wl": 321,
    "mT": 322,
    "mTn": 323,
    "mTnS": 324,
    "mTnSM": 325,
    "iyL": 326,
    "<o><o>ue>e": 327,
    "htcn": 328,
    "wrs": 329,
    "DcDc": 330,
    "DcDcG": 331,
    ".W": 332,
    "atr": 333,
    "ah": 334,
    "rv": 335,
    "<o><sitn>l": 336,
    "tig": 337,
    "os": 338,
    "ri": 339,
    "assatH": 340,
    "ev": 341,
    "y<o><sitn>": 342,
    "porm": 343,
    "hti": 344,
    "aeo": 345,
    "oye": 346,
    "2+": 347,
    "2+2": 348,
    "<o><o>ue>oe:Pa:mmr": 349,
    "fc": 350,
    "eoy-rao": 351,
    "wie": 352,
    "hc": 353,
    "uc": 354,
    "ke": 355,
    "c.es": 356,
    "rjc": 357,
    "poe": 358,
    "aln": 359,
    "md": 360,
    "qas4": 361,
    "sal": 362,
    "sTko": 363,
    "rd": 364,
    "tngt": 365,
    "no": 366,
    "rnig": 367,
    "ty": 368,
    "fl": 369,
    "ie<o><o>ue>": 370,
    "nyu": 371,
    "iem": 372,
    "dm": 373,
    "bs<srS": 374,
    "Jpns": 375,
    "ea": 376,
    "pe": 377,
    "ohr": 378,
    "ote": 379,
    "assatPrs": 380,
    "!es": 381,
    "wb": 382,
    "lk": 383,
    "dte": 384,
    "satr": 385,
    "inl": 386,
    "pns": 387,
    "dnt": 388,
    "hi": 389,
    "po": 390,
    "hy": 391,
    "u.es": 392,
    "/erh": 393,
    "e.es": 394,
    "assatYs": 395,
    "<o><o>ue>x": 396,
    "<o><o>ue>xli": 397,
    "<o><o>ue>o": 398,
    ",wtr": 399,
    "aa.es": 400,
    "aeo?es": 401,
    "assatWtr": 402,
    "assatWtri": 403,
    "yrg": 404,
    "rne<o><sitn>h": 405,
    "esnAse": 406,
    "oi": 407,
    "mnts": 408,
    "ti": 409,
    "og": 410,
    ".Se": 411,
    "pat": 412,
    "fes": 413,
    "cptli": 414,
    "anhc": 415,
    "anhcd": 416,
    "ediei": 417,
    "rdy": 418,
    "wa": 419,
    "etm,ls": 420,
    "elh": 421,
    ",adke": 422,
    "omco": 423,
    "ue.es": 424,
    "hmwr": 425,
    "ads": 426,
    "pol": 427,
    "eto": 428,
    "tdaln": 429,
    "sFi": 430,
    "ins": 431,
    "se.es": 432,
    "Be": 433,
    "septp": 434,
    "sres": 435,
    "olq": 436,
    "olqitr": 437,
    "Ke": 438,
    "hv": 439,
    "rbe": 440,
    "otr": 441,
    "th": 442,
    "ujc": 443,
    "of": 444,
    "eti": 445,
    "hmn": 446,
    "ag": 447,
    "cl": 448,
    "pr": 449,
    "assatN": 450,
    ",I": 451,
    "iyL,": 452,
    "<o><o>ue>iem": 453,
    "fJpni": 454,
    "<o><sitn>i": 455,
    "aeyu": 456,
    "igt": 457,
    "fyu": 458,
    "tms": 459,
    "3eul": 460,
    "fn": 461,
    "sol": 462,
    "uei": 463,
    "nte": 464,
    "wn": 465,
    "assatYu": 466,
    "<o><sitn>A": 467,
    "em": 468,
    "<o><o>ue>h": 469,
    "bu?es": 470,
    "oo": 471,
    "bs<srHwd": 472,
    "hl.es": 473,
    "bs<srC": 474,
    "sl": 475,
    "nad": 476,
    "bs<srTa": 477,
    "akyu": 478,
    "ec": 479,
    "htsn": 480,
    "htsnh": 481,
    "htsnhss": 482,
    "ulgt": 483,
    "evs": 484,
    "nn": 485,
    "smtig": 486,
    "<o><sitn>sac": 487,
    "<o><sitn>sac>": 488,
    "mns": 489,
    "udyu": 490,
    "wi": 491,
    "i?es": 492,
    "etn": 493,
    "yhntp": 494,
    "oa": 495,
    "swr": 496,
    "ete": 497,
    "fte": 498,
    "epr": 499,
    "lr": 500,
    "mv": 501,
    "nac": 502,
    "rw": 503,
    "ih,wtr": 504,
    "cmsatr": 505,
    "edy": 506,
    "bs<srHwmn": 507,
    "htyu": 508,
    "uk": 509,
    "uku": 510,
    "ukuko": 511,
    "aei": 512,
    "mas": 513,
    "he": 514,
    "sfr": 515,
    "assatRM": 516,
    "yrgna": 517,
    "yrgnao": 518,
    "yrgnaosad": 519,
    "yrgnaosadoe": 520,
    "yrgnaosadoeoye": 521,
    "tm<o><o>ue>hti": 522,
    "assat2+2": 523,
    "assat2+2eul": 524,
    "eso": 525,
    "tp<o><sitn>": 526,
    "Pc": 527,
    "fcsd": 528,
    "Tk": 529,
    "ra.es": 530,
    ":lan": 531,
    "patc": 532,
    "ou": 533,
    "aias": 534,
    "to:": 535,
    "sO": 536,
    "sOB": 537,
    "sOBT": 538,
    "sOBT7": 539,
    "luc": 540,
    "oe<o><sitn>h": 541,
    "ie<o><sitn>": 542,
    "rgl": 543,
    "rglrb": 544,
    "rglrbd": 545,
    "rglrbdie": 546,
    "esa": 547,
    "iih": 548,
    "fns": 549,
    "hntk": 550,
    "poetdaln": 551,
    "epoe": 552,
    "sH": 553,
    "sHO": 554,
    "xg": 555,
    "s2+2": 556,
    "s2+2<o><sitn>": 557,
    "qas4<o><o>ue>hti": 558,
    "rnei": 559,
    "ai.es": 560,
    "asots": 561,
    "uy": 562,
    "assat1": 563,
    "ik": 564,
    "oue": 565,
    "iue": 566,
    "aeas": 567,
    "bek": 568,
    "hs": 569,
    "opr": 570,
    "rnead": 571,
    "rneadJpn": 572,
    "rneadJpncptl": 573,
    "assatFac": 574,
    "esn[": 575,
    "esn[ol": 576,
    "mmr]": 577,
    "oei": 578,
    "RI": 579,
    "RI-": 580,
    "RI-7": 581,
    "sFia": 582,
    "septp:": 583,
    "hat": 584,
    "assatKe": 585,
    "rdc": 586,
    "ter": 587,
    "hret": 588,
    ",te": 589,
    "srth": 590,
    "elsu": 591,
    "elsuko": 592,
    "oeok<o><sitn>": 593,
    "elm": 594,
    "lae": 595,
    "ov": 596,
    "esal": 597,
    "tat": 598,
    "tatm": 599,
    "bs<srAe": 600,
    "bs<srAeyu": 601,
    "bs<srAeyuhmn": 602,
    "bs<srAeyuhmn<o><sitn>o": 603,
    "agae": 604,
    "agaemd": 605,
    "agaemdl": 606,
    "agaemdlrnig": 607,
    "agaemdlrnigo": 608,
    "orcmue": 609,
    "otae": 610,
    "ormc": 611,
    "ormcie<o><o>ue>": 612,
    "ormcie<o><o>ue>r": 613,
    ".Ia": 614,
    "iyL,atn": 615,
    "etm,dm": 616,
    "etm,dmsres": 617,
    "etm,dmsresl": 618,
    "etm,dmsreslt": 619,
    "etm,dmsreslt,adke": 620,
    "centm": 621,
    "olqitro.es": 622,
    "etp": 623,
    "le.es": 624,
    "ob": 625,
    "ahn": 626,
    "gtad": 627,
    "wy": 628,
    "<o><sitn>ai": 629,
    "<o><o>ue>e,": 630,
    "<o><o>ue>e,Jpns": 631,
    "<o><o>ue>e,Jpnsto": 632,
    "bs<srAd": 633,
    "bs<srHlo": 634,
    "bs<srHlo<o><sitn>i": 635,
    "Hw": 636,
    "<o><o>ue>'": 637,
    "nwrs": 638,
    "nwrsml": 639,
    "usin,": 640,
    "ihDcDcG": 641,
    "akm": 642,
    ".Wa": 643,
    "sA": 644,
    "ssf": 645,
    "ssfwr": 646,
    "htlan": 647,
    "atrsf": 648,
    "atrsfo": 649,
    "tcn": 650,
    "iea": 651,
    ".A": 652,
    "htso": 653,
    "esb": 654,
    "aohr": 655,
    "assat5": 656,
    "assat5tms": 657,
    "assat5tms3eul": 658,
    "o'": 659,
    "o'ed": 660,
    "o'edig": 661,
    "tr<o><sitn>": 662,
    ",tk": 663,
    "iys": 664,
    "optrg": 665,
    "oted": 666,
    "otedco": 667,
    "otedco?": 668,
    "otedco?B": 669,
    "otedco?Bc": 670,
    "otedco?Bcuei": 671,
    "oy<o><sitn>": 672,
    "tf": 673,
    "ere": 674,
    "eey": 675,
    "eeyn": 676,
    "fyuwn": 677,
    "bs<srY": 678,
    "bs<srYs": 679,
    "bs<srTak": 680,
    "bs<srTak!es": 681,
    "lnu": 682,
    "lnug": 683,
    "ocm": 684,
    "hr-": 685,
    "hr-em": 686,
    "CU": 687,
    "CU<o><sitn>h": 688,
    "ban": 689,
    "si": 690,
    "cin": 691,
    "st": 692,
    "stes": 693,
    "isa": 694,
    "lgt": 695,
    "ws": 696,
    "ntm": 697,
    "e?es": 698,
    "rp": 699,
    "hud": 700,
    "nm": 701,
    "rh": 702,
    "bs<srCnyu": 703,
    "finl": 704,
    "epas": 705,
    "<o><o>ue>htsol": 706,
    "mtig": 707,
    "bs<srTasa": 708,
    "bs<srTasaet": 709,
    "bs<srTasaetakyu": 710,
    "bs<srTasaetakyut": 711,
    "rnh": 712,
    "rnh<o><sitn>": 713,
    "nF": 714,
    "nFec": 715,
    "assatHlo": 716,
    "assatHloi": 717,
    "shl.es": 718,
    "<o><sitn>lns": 719,
    "ar": 720,
    "opat": 721,
    "qeto": 722,
    "unn": 723,
    "assatI": 724,
    "c.I": 725,
    "ogtr": 726,
    "fI": 727,
    "olo": 728,
    "bs<srSac": 729,
    "is<o><sitn>sac>": 730,
    "is/erh": 731,
    "aes": 732,
    "2d": 733,
    "2dv": 734,
    "2dvd": 735,
    "2dvdd": 736,
    "2dvddb": 737,
    "s9": 738,
    "mns2": 739,
    "<o><o>ue>y": 740,
    "assatBe": 741,
    "hr<o><sitn>": 742,
    "Go": 743,
    "htw": 744,
    "htwudyu": 745,
    "htwudyulk": 746,
    "otl": 747,
    "bs<srTl": 748,
    "bg": 749,
    "ets": 750,
    "oml": 751,
    "epm": 752,
    "oie": 753,
    "eal": 754,
    "ig<o><sitn>": 755,
    "ek": 756,
    "ic": 757,
    "assat<": 758,
    "assat<erh": 759,
    "ae,": 760,
    "vrul": 761,
    "vrulev": 762,
    "vrulevrn": 763,
    "vrulevrnet": 764,
    "nx": 765,
    "rga": 766,
    "aig": 767,
    "en": 768,
    "id": 769,
    "<o><sitn>0": 770,
    "4eul": 771,
    "land": 772,
    "a,ad": 773,
    "rvt": 774,
    "pl": 775,
    "tlie": 776,
    "aepe": 777,
    "aepei": 778,
    "aepeito": 779,
    "assatAcmue": 780,
    "poesr": 781,
    "aa?es": 782,
    "nacer": 783,
    "nacerdy": 784,
    "sce": 785,
    "Fins": 786,
    "Finsi": 787,
    "oen": 788,
    "ahohr": 789,
    "rcie": 790,
    "cmsatrM": 791,
    "cmsatrMna": 792,
    "<o><sitn>hr": 793,
    "aeul": 794,
    "frt": 795,
    ".Icn": 796,
    "nom": 797,
    "nomto": 798,
    "otsae": 799,
    "pc": 800,
    ",p": 801,
    "rnm": 802,
    "n<o><sitn>": 803,
    "+1": 804,
    "emn": 805,
    "fteU": 806,
    "fteUie": 807,
    "tts": 808,
    "elv": 809,
    "ytm": 810,
    "rsl": 811,
    "rslrs": 812,
    "rslrsse.es": 813,
    "ay": 814,
    "nawe": 815,
    "sa?es": 816,
    "sml.es": 817,
    "hw": 818,
    "aefo": 819,
    "eie": 820,
    "pswr": 821,
    "on.es": 822,
    "assatR": 823,
    "igue": 824,
    "i,ad": 825,
    "rmm": 826,
    "rmme": 827,
    "ifr": 828,
    "ain": 829,
    "nl": 830,
    "tec": 831,
    "sfoe": 832,
    "saer": 833,
    "sasae": 834,
    "sasaewt": 835,
    "sur": 836,
    "raf": 837,
    "rafs": 838,
    "t?es": 839,
    "sdfr": 840,
    "dt": 841,
    "mvn": 842,
    "2p": 843,
    "2pu": 844,
    "Ii": 845,
    "etne": 846,
    "cptlc": 847,
    "fFac.es": 848,
    "assatTko": 849,
    "assatRMi": 850,
    "rno": 851,
    "ces": 852,
    "cesmmr": 853,
    "eprr": 854,
    "trg": 855,
    ".B": 856,
    "epe": 857,
    "<o>ue>hti": 858,
    "sPrs<o><o>ue>oe:Pa:mmr": 859,
    "s:P": 860,
    "s:Pa": 861,
    "tpb": 862,
    "tp<o><sitn>)": 863,
    "tp<o><sitn>)Pc": 864,
    "oi.": 865,
    "oi.2": 866,
    "0fcsd": 867,
    "0fcsdmnts": 868,
    ")W": 869,
    ")Wie": 870,
    ")Wie3": 871,
    ")Wie3n": 872,
    ")Wie3nts": 873,
    ")Tk": 874,
    "ra.": 875,
    "onti": 876,
    "ogts": 877,
    "ogts:lan": 878,
    "ogts:lanPto": 879,
    "ais": 880,
    "ais<o><sitn>": 881,
    "ais<o><sitn>tp": 882,
    "ais<o><sitn>tp1": 883,
    "ntl": 884,
    "tp2": 885,
    "aibe": 886,
    "rn.Se": 887,
    ":patc": 888,
    "fes.Se": 889,
    ":wie": 890,
    ":wieatn": 891,
    "cit": 892,
    "cit<o><o>ue>oe:Pa:": 893,
    "cit<o><o>ue>oe:Pa:cm": 894,
    "cit<o><o>ue>oe:Pa:cmae": 895,
    "cit<o><o>ue>oe:Pa:cmae-rao": 896,
    "ie:": 897,
    "ie:Fac": 898,
    "aiasAse": 899,
    "s:C": 900,
    "s:Cm": 901,
    "s:Cmae": 902,
    "s:CmaeFac": 903,
    "aias<o><sitn>": 904,
    "aias<o><sitn>rne": 905,
    "aias<o><sitn>rnecptli": 906,
    "ai.": 907,
    "ai.Jpn": 908,
    "ai.Jpncptli": 909,
    "to:eoy": 910,
    "rdyAse": 911,
    "s:U": 912,
    "s:Uig": 913,
    "s:Uigmmr": 914,
    "s:Uigmmr,": 915,
    "s:Uigmmr,wa": 916,
    "steluc": 917,
    "sOBT7.es": 918,
    "erh-rao": 919,
    "to:erh": 920,
    "cen,": 921,
    "cen,co": 922,
    "omAse": 923,
    "s:R": 924,
    "s:Rsac": 925,
    "isad": 926,
    "isadsm": 927,
    "isadsma": 928,
    "isadsmaie<o><sitn>": 929,
    "isadsmaie<o><sitn>ep": 930,
    "isadsmaie<o><sitn>epa": 931,
    "isadsmaie<o><sitn>eparglrbdie": 932,
    "euesr": 933,
    "euesresa": 934,
    "ih,adke": 935,
    "aea": 936,
    "aeaml": 937,
    "aeamli": 938,
    "aeamlise": 939,
    "iihhmwr": 940,
    "hnrs": 941,
    "hnrs.es": 942,
    "assatF": 943,
    "assatFrt": 944,
    "assatFrtfns": 945,
    "oeokpol": 946,
    "oeokpolm": 947,
    "etwt": 948,
    "tec.es": 949,
    "bs<sr[": 950,
    "bs<sr[eoy": 951,
    "rdyQ": 952,
    "rdyQeto": 953,
    "rdyQeto:": 954,
    "rdyQeto:W": 955,
    "rdyQeto:Wa": 956,
    "stepoetdaln": 957,
    "rmmmr": 958,
    "rmmmr?es": 959,
    "assatTepoe": 960,
    "assatTepoetdaln": 961,
    "sFia.es": 962,
    "swtr": 963,
    "swtrmd": 964,
    "f<o><sitn>": 965,
    "f<o><sitn>ae": 966,
    "sHO-": 967,
    "sHO-to": 968,
    "sHO-toh": 969,
    "sHO-tohd": 970,
    "sHO-tohdoe": 971,
    "xgna": 972,
    "xgnao.es": 973,
    "lnasots": 974,
    "lnasotsuy": 975,
    "lnasotsuyss": 976,
    "lnasotsuyssins": 977,
    "lnasotsuyssinse": 978,
    "yse.es": 979,
    "ikoe": 980,
    "ikoetp": 981,
    "ikoetpc": 982,
    ")S": 983,
    ")Suy": 984,
    ")Suyfr": 985,
    ")Suyfr2": 986,
    "iue.": 987,
    "iue.3": 988,
    "oe.": 989,
    "oe.4": 990,
    "aeasot": 991,
    "aeasotbek": 992,
    "aeasotbek<o><o>ue>oe:Pa:mmr": 993,
    "s:Be": 994,
    "s:Bek": 995,
    "s:Bekd": 996,
    "s:Bekdw": 997,
    "hsln": 998,
    "yhnbs": 999,
    "yhnbsc.es": 1000,
    "assatSe": 1001,
    ":i": 1002,
    ":isal": 1003,
    ":isalPto": 1004,
    ":isalPto.Se": 1005,
    ":lanv": 1006,
    ":lanvra": 1007,
    ":lanvral": 1008,
    ":lanvralsad": 1009,
    ":lanvralsadp": 1010,
    ":lanvralsadpit": 1011,
    "tp3": 1012,
    "rciei": 1013,
    "rciei/": 1014,
    "rciei/le": 1015,
    "tp4": 1016,
    "iysr": 1017,
    "iysrp": 1018,
    "iysrp.es": 1019,
    "esnF": 1020,
    "esnFc": 1021,
    "esnFcss": 1022,
    "esnFcssd": 1023
  }
}